{
  "0": "\u0000",
  "1": "\u0001",
  "2": "\u0002",
  "3": "\u0003",
  "4": "\u0004",
  "5": "\u0005",
  "6": "\u0006",
  "7": "\u0007",
  "8": "\b",
  "9": "\t",
  "10": "\n",
  "11": "\u000b",
  "12": "\f",
  "13": "\r",
  "14": "\u000e",
  "15": "\u000f",
  "16": "\u0010",
  "17": "\u0011",
  "18": "\u0012",
  "19": "\u0013",
  "20": "\u0014",
  "21": "\u0015",
  "22": "\u0016",
  "23": "\u0017",
  "24": "\u0018",
  "25": "\u0019",
  "26": "\u001a",
  "27": "\u001b",
  "28": "\u001c",
  "29": "\u001d",
  "30": "\u001e",
  "31": "\u001f",
  "32": " ",
  "33": "!",
  "34": "\"",
  "35": "#",
  "36": "$",
  "37": "%",
  "38": "&",
  "39": "'",
  "40": "(",
  "41": ")",
  "42": "*",
  "43": "+",
  "44": ",",
  "45": "-",
  "46": ".",
  "47": "/",
  "48": "0",
  "49": "1",
  "50": "2",
  "51": "3",
  "52": "4",
  "53": "5",
  "54": "6",
  "55": "7",
  "56": "8",
  "57": "9",
  "58": ":",
  "59": ";",
  "60": "<",
  "61": "=",
  "62": ">",
  "63": "?",
  "64": "@",
  "65": "A",
  "66": "B",
  "67": "C",
  "68": "D",
  "69": "E",
  "70": "F",
  "71": "G",
  "72": "H",
  "73": "I",
  "74": "J",
  "75": "K",
  "76": "L",
  "77": "M",
  "78": "N",
  "79": "O",
  "80": "P",
  "81": "Q",
  "82": "R",
  "83": "S",
  "84": "T",
  "85": "U",
  "86": "V",
  "87": "W",
  "88": "X",
  "89": "Y",
  "90": "Z",
  "91": "[",
  "92": "\\",
  "93": "]",
  "94": "^",
  "95": "_",
  "96": "`",
  "97": "a",
  "98": "b",
  "99": "c",
  "100": "d",
  "101": "e",
  "102": "f",
  "103": "g",
  "104": "h",
  "105": "i",
  "106": "j",
  "107": "k",
  "108": "l",
  "109": "m",
  "110": "n",
  "111": "o",
  "112": "p",
  "113": "q",
  "114": "r",
  "115": "s",
  "116": "t",
  "117": "u",
  "118": "v",
  "119": "w",
  "120": "x",
  "121": "y",
  "122": "z",
  "123": "{",
  "124": "|",
  "125": "}",
  "126": "~",
  "127": "",
  "128": "",
  "129": "",
  "130": "",
  "131": "",
  "132": "",
  "133": "",
  "134": "",
  "135": "",
  "136": "",
  "137": "",
  "138": "",
  "139": "",
  "140": "",
  "141": "",
  "142": "",
  "143": "",
  "144": "",
  "145": "",
  "146": "",
  "147": "",
  "148": "",
  "149": "",
  "150": "",
  "151": "",
  "152": "",
  "153": "",
  "154": "",
  "155": "",
  "156": "",
  "157": "",
  "158": "",
  "159": "",
  "160": " ",
  "161": "¡",
  "162": "¢",
  "163": "£",
  "164": "¤",
  "165": "¥",
  "166": "¦",
  "167": "§",
  "168": "¨",
  "169": "©",
  "170": "ª",
  "171": "«",
  "172": "¬",
  "173": "­",
  "174": "®",
  "175": "¯",
  "176": "°",
  "177": "±",
  "178": "²",
  "179": "³",
  "180": "´",
  "181": "µ",
  "182": "¶",
  "183": "·",
  "184": "¸",
  "185": "¹",
  "186": "º",
  "187": "»",
  "188": "¼",
  "189": "½",
  "190": "¾",
  "191": "¿",
  "192": "À",
  "193": "Á",
  "194": "Â",
  "195": "Ã",
  "196": "Ä",
  "197": "Å",
  "198": "Æ",
  "199": "Ç",
  "200": "È",
  "201": "É",
  "202": "Ê",
  "203": "Ë",
  "204": "Ì",
  "205": "Í",
  "206": "Î",
  "207": "Ï",
  "208": "Ð",
  "209": "Ñ",
  "210": "Ò",
  "211": "Ó",
  "212": "Ô",
  "213": "Õ",
  "214": "Ö",
  "215": "×",
  "216": "Ø",
  "217": "Ù",
  "218": "Ú",
  "219": "Û",
  "220": "Ü",
  "221": "Ý",
  "222": "Þ",
  "223": "ß",
  "224": "à",
  "225": "á",
  "226": "â",
  "227": "ã",
  "228": "ä",
  "229": "å",
  "230": "æ",
  "231": "ç",
  "232": "è",
  "233": "é",
  "234": "ê",
  "235": "ë",
  "236": "ì",
  "237": "í",
  "238": "î",
  "239": "ï",
  "240": "ð",
  "241": "ñ",
  "242": "ò",
  "243": "ó",
  "244": "ô",
  "245": "õ",
  "246": "ö",
  "247": "÷",
  "248": "ø",
  "249": "ù",
  "250": "ú",
  "251": "û",
  "252": "ü",
  "253": "ý",
  "254": "þ",
  "255": "ÿ",
  "256": " t",
  "257": "he",
  "258": " a",
  "259": " s",
  "260": " w",
  "261": " the",
  "262": "nd",
  "263": "ed",
  "264": " b",
  "265": " to",
  "266": " and",
  "267": " h",
  "268": " f",
  "269": " T",
  "270": "in",
  "271": " wa",
  "272": "re",
  "273": "it",
  "274": "ou",
  "275": " l",
  "276": " d",
  "277": " c",
  "278": " p",
  "279": "ay",
  "280": " m",
  "281": "er",
  "282": " was",
  "283": " The",
  "284": "om",
  "285": " he",
  "286": "is",
  "287": " n",
  "288": "im",
  "289": "ar",
  "290": "on",
  "291": " sa",
  "292": "ll",
  "293": "id",
  "294": " ha",
  "295": " g",
  "296": "at",
  "297": " S",
  "298": "ing",
  "299": "ot",
  "300": "en",
  "301": "an",
  "302": "le",
  "303": "or",
  "304": "ir",
  "305": "am",
  "306": "et",
  "307": " H",
  "308": " it",
  "309": " th",
  "310": "ig",
  "311": " They",
  "312": " pl",
  "313": " in",
  "314": "il",
  "315": " He",
  "316": " \"",
  "317": "ow",
  "318": "ver",
  "319": "ri",
  "320": " u",
  "321": "ut",
  "322": " play",
  "323": "ith",
  "324": " said",
  "325": " be",
  "326": " day",
  "327": " with",
  "328": "pp",
  "329": "On",
  "330": " o",
  "331": " y",
  "332": "oo",
  "333": "ked",
  "334": " r",
  "335": " her",
  "336": "ce",
  "337": "ld",
  "338": " his",
  "339": " Tim",
  "340": " I",
  "341": " She",
  "342": " st",
  "343": "ke",
  "344": " e",
  "345": " big",
  "346": "nt",
  "347": "ck",
  "348": "very",
  "349": " you",
  "350": "st",
  "351": "ve",
  "352": "end",
  "353": "un",
  "354": " happ",
  "355": " on",
  "356": "all",
  "357": "riend",
  "358": " friend",
  "359": " they",
  "360": " L",
  "361": "ily",
  "362": " we",
  "363": " had",
  "364": " up",
  "365": " li",
  "366": " not",
  "367": "her",
  "368": " want",
  "369": "itt",
  "370": " of",
  "371": "ad",
  "372": " do",
  "373": " B",
  "374": "se",
  "375": " happy",
  "376": "ent",
  "377": " very",
  "378": " M",
  "379": "es",
  "380": " saw",
  "381": "One",
  "382": " that",
  "383": "ould",
  "384": "'s",
  "385": " for",
  "386": "ittle",
  "387": " mom",
  "388": " little",
  "389": " so",
  "390": " sh",
  "391": " she",
  "392": "ime",
  "393": "ch",
  "394": " nam",
  "395": " time",
  "396": " k",
  "397": " ne",
  "398": "ound",
  "399": ".\"",
  "400": " there",
  "401": " named",
  "402": " bo",
  "403": " sm",
  "404": " were",
  "405": " wanted",
  "406": " Lily",
  "407": " friends",
  "408": "out",
  "409": "ird",
  "410": " but",
  "411": "ved",
  "412": "ht",
  "413": "!\"",
  "414": "The",
  "415": " Tom",
  "416": " bird",
  "417": "el",
  "418": "ake",
  "419": " an",
  "420": "al",
  "421": " too",
  "422": "ome",
  "423": " went",
  "424": " wh",
  "425": "ide",
  "426": "Once",
  "427": " all",
  "428": " It",
  "429": " hel",
  "430": "ug",
  "431": "ue",
  "432": " help",
  "433": " is",
  "434": " loo",
  "435": " A",
  "436": " upon",
  "437": " lo",
  "438": "ter",
  "439": "ry",
  "440": " toy",
  "441": "ore",
  "442": " fun",
  "443": "ind",
  "444": "get",
  "445": "ill",
  "446": "ame",
  "447": " as",
  "448": " j",
  "449": "ra",
  "450": " at",
  "451": "gether",
  "452": " cat",
  "453": " did",
  "454": " re",
  "455": "ur",
  "456": " together",
  "457": "ack",
  "458": " se",
  "459": "ly",
  "460": " tre",
  "461": "ood",
  "462": " dog",
  "463": "ic",
  "464": " could",
  "465": "ted",
  "466": " can",
  "467": " ball",
  "468": "ard",
  "469": " gir",
  "470": " their",
  "471": "ark",
  "472": " girl",
  "473": " played",
  "474": "ec",
  "475": "my",
  "476": " him",
  "477": " go",
  "478": "way",
  "479": " ro",
  "480": "?\"",
  "481": "hed",
  "482": "ain",
  "483": " kn",
  "484": " le",
  "485": " out",
  "486": "hen",
  "487": " are",
  "488": " fr",
  "489": "um",
  "490": "'t",
  "491": " them",
  "492": " boy",
  "493": " sad",
  "494": "ul",
  "495": "ax",
  "496": " tree",
  "497": "other",
  "498": "oug",
  "499": " man",
  "500": " loved",
  "501": " have",
  "502": " cl",
  "503": " found",
  "504": " looked",
  "505": " sp",
  "506": " Sue",
  "507": " star",
  "508": " sc",
  "509": "one",
  "510": " back",
  "511": "own",
  "512": "hing",
  "513": "are",
  "514": " Max",
  "515": " like",
  "516": " bec",
  "517": "side",
  "518": "ful",
  "519": " me",
  "520": "op",
  "521": "ong",
  "522": " park",
  "523": " would",
  "524": "ight",
  "525": " liked",
  "526": "round",
  "527": " One",
  "528": "elt",
  "529": " fa",
  "530": " make",
  "531": " car",
  "532": "ell",
  "533": " But",
  "534": " felt",
  "535": " la",
  "536": " W",
  "537": " asked",
  "538": " Sam",
  "539": "You",
  "540": "ared",
  "541": "omet",
  "542": "ice",
  "543": " came",
  "544": " started",
  "545": " new",
  "546": "ag",
  "547": " see",
  "548": " no",
  "549": "ought",
  "550": "ouse",
  "551": " Ben",
  "552": " al",
  "553": "iled",
  "554": " ag",
  "555": " other",
  "556": " good",
  "557": "pot",
  "558": " somet",
  "559": " small",
  "560": " br",
  "561": "ob",
  "562": "ss",
  "563": " smiled",
  "564": "ade",
  "565": "ried",
  "566": "ings",
  "567": " say",
  "568": " find",
  "569": " wor",
  "570": " away",
  "571": " ex",
  "572": " from",
  "573": " thought",
  "574": " made",
  "575": " Spot",
  "576": " what",
  "577": " home",
  "578": " co",
  "579": " playing",
  "580": "ened",
  "581": " something",
  "582": "ty",
  "583": " put",
  "584": " every",
  "585": " wal",
  "586": "ach",
  "587": " mu",
  "588": "ia",
  "589": "uc",
  "590": "ook",
  "591": "ie",
  "592": "ny",
  "593": " F",
  "594": " again",
  "595": " ran",
  "596": " down",
  "597": "ile",
  "598": "dd",
  "599": "arn",
  "600": " toys",
  "601": "ave",
  "602": " pr",
  "603": "king",
  "604": " scared",
  "605": " some",
  "606": " took",
  "607": " laug",
  "608": " J",
  "609": " house",
  "610": " fl",
  "611": "if",
  "612": "ab",
  "613": " around",
  "614": " box",
  "615": " sw",
  "616": "ure",
  "617": "ick",
  "618": " learn",
  "619": "ep",
  "620": "ret",
  "621": "ish",
  "622": "oud",
  "623": "uck",
  "624": " your",
  "625": " lived",
  "626": " You",
  "627": " things",
  "628": " sun",
  "629": " then",
  "630": " will",
  "631": "ew",
  "632": " bl",
  "633": " my",
  "634": "as",
  "635": " when",
  "636": " ab",
  "637": "pped",
  "638": ",\"",
  "639": "us",
  "640": " get",
  "641": "ank",
  "642": "Tim",
  "643": "Th",
  "644": " ch",
  "645": " lot",
  "646": "ucy",
  "647": "oth",
  "648": "ap",
  "649": "ump",
  "650": " Mia",
  "651": " who",
  "652": " tried",
  "653": "ist",
  "654": " fe",
  "655": " know",
  "656": " got",
  "657": "ited",
  "658": "ust",
  "659": " many",
  "660": " about",
  "661": " says",
  "662": " int",
  "663": "ally",
  "664": "nder",
  "665": " red",
  "666": " knew",
  "667": " pret",
  "668": "ive",
  "669": " dec",
  "670": "Lily",
  "671": "ise",
  "672": "ous",
  "673": " any",
  "674": "au",
  "675": " D",
  "676": "ace",
  "677": " care",
  "678": " more",
  "679": " pic",
  "680": "qu",
  "681": "fter",
  "682": " best",
  "683": "ause",
  "684": " op",
  "685": " became",
  "686": " Lucy",
  "687": " po",
  "688": " water",
  "689": "ways",
  "690": "â",
  "691": "fe",
  "692": " hug",
  "693": " learned",
  "694": " Bob",
  "695": " exc",
  "696": " because",
  "697": "ite",
  "698": " always",
  "699": " look",
  "700": " outside",
  "701": " into",
  "702": " room",
  "703": " both",
  "704": " un",
  "705": "ided",
  "706": " So",
  "707": " show",
  "708": " laughed",
  "709": " eat",
  "710": " decided",
  "711": " And",
  "712": " gre",
  "713": " ho",
  "714": "urp",
  "715": "udd",
  "716": "ant",
  "717": " pe",
  "718": "ers",
  "719": " v",
  "720": " E",
  "721": " Mom",
  "722": " jump",
  "723": "nn",
  "724": " long",
  "725": " one",
  "726": " ke",
  "727": " this",
  "728": " run",
  "729": " nice",
  "730": "Yes",
  "731": " excited",
  "732": " fast",
  "733": "They",
  "734": "Tom",
  "735": " feel",
  "736": " dad",
  "737": " told",
  "738": " mo",
  "739": " sk",
  "740": " inside",
  "741": "our",
  "742": " am",
  "743": " tr",
  "744": " sl",
  "745": "ull",
  "746": "lew",
  "747": " sor",
  "748": " take",
  "749": "urpr",
  "750": " rock",
  "751": "iny",
  "752": " pretty",
  "753": "nna",
  "754": " surpr",
  "755": " gave",
  "756": " each",
  "757": " gra",
  "758": "imal",
  "759": "ink",
  "760": " animal",
  "761": " much",
  "762": " how",
  "763": "Wh",
  "764": " str",
  "765": " old",
  "766": " need",
  "767": "But",
  "768": " than",
  "769": " let",
  "770": "ven",
  "771": "ara",
  "772": "ro",
  "773": "ged",
  "774": " tow",
  "775": "ess",
  "776": " under",
  "777": " C",
  "778": " sorry",
  "779": " or",
  "780": " walked",
  "781": " cle",
  "782": "and",
  "783": "ft",
  "784": " ta",
  "785": " hand",
  "786": "ge",
  "787": " te",
  "788": "ised",
  "789": "og",
  "790": " fish",
  "791": "urn",
  "792": "urt",
  "793": " kind",
  "794": "ff",
  "795": " clo",
  "796": " His",
  "797": " wat",
  "798": "ving",
  "799": " hig",
  "800": " animals",
  "801": "ase",
  "802": " Amy",
  "803": " just",
  "804": " us",
  "805": " happened",
  "806": "ched",
  "807": " food",
  "808": "pl",
  "809": " sky",
  "810": " flow",
  "811": "here",
  "812": " sn",
  "813": "rom",
  "814": " try",
  "815": " list",
  "816": " ide",
  "817": " We",
  "818": " near",
  "819": "gry",
  "820": " didn",
  "821": " idea",
  "822": " bet",
  "823": " en",
  "824": "able",
  "825": "ate",
  "826": "ine",
  "827": " fi",
  "828": " flew",
  "829": "eci",
  "830": " its",
  "831": "ream",
  "832": "Thank",
  "833": " careful",
  "834": " share",
  "835": " cake",
  "836": "ex",
  "837": " heard",
  "838": " better",
  "839": " tw",
  "840": " stor",
  "841": " if",
  "842": "ecial",
  "843": " special",
  "844": " dan",
  "845": "pec",
  "846": "ber",
  "847": "ion",
  "848": " Th",
  "849": " bear",
  "850": " lots",
  "851": " wind",
  "852": "lf",
  "853": "more",
  "854": " anymore",
  "855": "udden",
  "856": " clean",
  "857": " never",
  "858": " fo",
  "859": " don",
  "860": "Mom",
  "861": " gr",
  "862": " bug",
  "863": " tal",
  "864": "ople",
  "865": " com",
  "866": " hard",
  "867": " bu",
  "868": " end",
  "869": " Then",
  "870": " by",
  "871": " fly",
  "872": "uddenly",
  "873": " mag",
  "874": "ort",
  "875": " turn",
  "876": " fore",
  "877": " over",
  "878": " Anna",
  "879": " Every",
  "880": " even",
  "881": "rm",
  "882": "\n\n",
  "883": " love",
  "884": " col",
  "885": " safe",
  "886": " people",
  "887": " after",
  "888": " bad",
  "889": "ady",
  "890": " high",
  "891": " fam",
  "892": " ground",
  "893": "ak",
  "894": " door",
  "895": "imb",
  "896": " come",
  "897": "bb",
  "898": " shiny",
  "899": " proud",
  "900": "As",
  "901": " opened",
  "902": " climb",
  "903": "uff",
  "904": " hurt",
  "905": " picked",
  "906": " blue",
  "907": " loud",
  "908": "pected",
  "909": "Let",
  "910": " che",
  "911": " give",
  "912": " way",
  "913": " surprised",
  "914": " gl",
  "915": "'m",
  "916": "expected",
  "917": " unexpected",
  "918": "ild",
  "919": " thanked",
  "920": " cu",
  "921": " book",
  "922": "ummy",
  "923": " When",
  "924": " From",
  "925": " call",
  "926": " color",
  "927": " Her",
  "928": " far",
  "929": "arden",
  "930": " garden",
  "931": " magic",
  "932": " ever",
  "933": " K",
  "934": " par",
  "935": "ough",
  "936": "kay",
  "937": " im",
  "938": " hugged",
  "939": " still",
  "940": " place",
  "941": "No",
  "942": " unt",
  "943": "ool",
  "944": " off",
  "945": " Sara",
  "946": "age",
  "947": " ma",
  "948": " smile",
  "949": " walk",
  "950": "ture",
  "951": " P",
  "952": " jumped",
  "953": " family",
  "954": " In",
  "955": " until",
  "956": "unny",
  "957": "iz",
  "958": "hes",
  "959": " pa",
  "960": "em",
  "961": " should",
  "962": " qu",
  "963": " now",
  "964": "ip",
  "965": " kid",
  "966": "ct",
  "967": " stick",
  "968": "itty",
  "969": " stay",
  "970": " strong",
  "971": " forest",
  "972": " sto",
  "973": "ane",
  "974": " dra",
  "975": "aut",
  "976": " app",
  "977": "uffy",
  "978": "dy",
  "979": " bro",
  "980": " boat",
  "981": " great",
  "982": " squ",
  "983": " bra",
  "984": " beaut",
  "985": " tra",
  "986": "xt",
  "987": " next",
  "988": " jo",
  "989": " helped",
  "990": " Sally",
  "991": "lease",
  "992": " hat",
  "993": "les",
  "994": " happily",
  "995": " picture",
  "996": " story",
  "997": "iful",
  "998": "ies",
  "999": "<|endoftext|>"
}